<?xml version="1.0"?>
<opencv_storage>
<cascade>
  <stageType>BOOST</stageType>
  <featureType>LBP</featureType>
  <height>18</height>
  <width>36</width>
  <stageParams>
    <boostType>GAB</boostType>
    <minHitRate>9.9500000476837158e-01</minHitRate>
    <maxFalseAlarm>4.4999998807907104e-01</maxFalseAlarm>
    <weightTrimRate>9.4999999999999996e-01</weightTrimRate>
    <maxDepth>1</maxDepth>
    <maxWeakCount>100</maxWeakCount></stageParams>
  <featureParams>
    <maxCatCount>256</maxCatCount>
    <featSize>1</featSize></featureParams>
  <stageNum>12</stageNum>
  <stages>
    <!-- stage 0 -->
    <_>
      <maxWeakCount>3</maxWeakCount>
      <stageThreshold>-1.0410947799682617e+00</stageThreshold>
      <weakClassifiers>
        <_>
          <internalNodes>
            0 -1 20 -67895297 -3026695 -241110049 -655915 -71106561
            -67904837 -841417729 -860675</internalNodes>
          <leafValues>
            -8.7293410301208496e-01 7.1677017211914062e-01</leafValues></_>
        <_>
          <internalNodes>
            0 -1 47 -2 -169895970 -99602096 -2898737 2034518488
            -41879263 2078099660 -257</internalNodes>
          <leafValues>
            -7.6278716325759888e-01 6.7764782905578613e-01</leafValues></_>
        <_>
          <internalNodes>
            0 -1 53 -14156528 -2360995 -1087516035 -2098211 -70255119
            -3189 -101786371 -2097923</internalNodes>
          <leafValues>
            -8.0441015958786011e-01 5.9462642669677734e-01</leafValues></_></weakClassifiers></_>
    <!-- stage 1 -->
    <_>
      <maxWeakCount>3</maxWeakCount>
      <stageThreshold>-1.0817840099334717e+00</stageThreshold>
      <weakClassifiers>
        <_>
          <internalNodes>
            0 -1 34 -6300673 -2141765 -40116225 -551825185 -1081345025
            -1078812496 453241339 -552413699</internalNodes>
          <leafValues>
            -8.3109742403030396e-01 4.9768304824829102e-01</leafValues></_>
        <_>
          <internalNodes>
            0 -1 37 -577831220 -8651634 -39847425 -538969974 -67438934
            -21261906 -72352850 -1053014</internalNodes>
          <leafValues>
            -8.2492357492446899e-01 5.2291446924209595e-01</leafValues></_>
        <_>
          <internalNodes>
            0 -1 59 -2099454 -351677279 -727530976 1921185286
            -1700569087 1191397377 -486022654 -425198793</internalNodes>
          <leafValues>
            -7.5454348325729370e-01 6.0894185304641724e-01</leafValues></_></weakClassifiers></_>
    <!-- stage 2 -->
    <_>
      <maxWeakCount>4</maxWeakCount>
      <stageThreshold>-1.6918846368789673e+00</stageThreshold>
      <weakClassifiers>
        <_>
          <internalNodes>
            0 -1 17 -678297601 -936459 -69471233 -537529867 -1074933761
            -4129 -55771137 -336387</internalNodes>
          <leafValues>
            -8.6552780866622925e-01 5.8298271894454956e-01</leafValues></_>
        <_>
          <internalNodes>
            0 -1 29 -1458908016 -1078865712 -1657580075 -1613278831
            -1977042246 -1079301892 170577663 -1610919461</internalNodes>
          <leafValues>
            -7.5184506177902222e-01 5.8097952604293823e-01</leafValues></_>
        <_>
          <internalNodes>
            0 -1 18 -1205829381 -1118815531 428968191 -1143883819
            -1330403077 -1108114517 -1057953025 -1074003989</internalNodes>
          <leafValues>
            -6.3433164358139038e-01 6.4525496959686279e-01</leafValues></_>
        <_>
          <internalNodes>
            0 -1 4 -888475906 -304157490 -1941525265 1315882959
            -1883356705 -822289493 -956445697 -809504769</internalNodes>
          <leafValues>
            -7.4353760480880737e-01 5.5981993675231934e-01</leafValues></_></weakClassifiers></_>
    <!-- stage 3 -->
    <_>
      <maxWeakCount>5</maxWeakCount>
      <stageThreshold>-1.3022286891937256e+00</stageThreshold>
      <weakClassifiers>
        <_>
          <internalNodes>
            0 -1 26 -118425089 -70131715 -1812930561 -673355 -122618369
            -4218113 -100876289 -12907</internalNodes>
          <leafValues>
            -8.4961730241775513e-01 4.7238180041313171e-01</leafValues></_>
        <_>
          <internalNodes>
            0 -1 31 -13567088 -604966406 387497912 -6570501 -5186148
            -34669637 -72614997 -4198465</internalNodes>
          <leafValues>
            -8.2665073871612549e-01 4.0551623702049255e-01</leafValues></_>
        <_>
          <internalNodes>
            0 -1 12 -1096089606 -141860 -1121397249 -4195475 -1413808646
            -5308756 -1423245314 -83699000</internalNodes>
          <leafValues>
            -7.1774208545684814e-01 4.9104997515678406e-01</leafValues></_>
        <_>
          <internalNodes>
            0 -1 2 -268701953 -387979265 -287322938 -1057296666
            1941930357 1158002436 1955554389 -193990993</internalNodes>
          <leafValues>
            -6.1516076326370239e-01 5.8024549484252930e-01</leafValues></_>
        <_>
          <internalNodes>
            0 -1 48 -1149117955 -2600492 -683155971 -541959204
            -1424229698 -23404294 731560699 522897657</internalNodes>
          <leafValues>
            -7.1678656339645386e-01 5.1153594255447388e-01</leafValues></_></weakClassifiers></_>
    <!-- stage 4 -->
    <_>
      <maxWeakCount>5</maxWeakCount>
      <stageThreshold>-1.0759174823760986e+00</stageThreshold>
      <weakClassifiers>
        <_>
          <internalNodes>
            0 -1 25 -237784837 -2901089 825438687 -967689 -1192191493
            -2938625 -1192117249 -67634177</internalNodes>
          <leafValues>
            -7.6886099576950073e-01 5.0729167461395264e-01</leafValues></_>
        <_>
          <internalNodes>
            0 -1 11 -16783617 -6297123 -1038293284 -16850207 -238039587
            2041267099 -53485315 -184553473</internalNodes>
          <leafValues>
            -6.0652196407318115e-01 6.3270002603530884e-01</leafValues></_>
        <_>
          <internalNodes>
            0 -1 40 -253563390 -547377 -645670401 -2098293 -73400390
            -67511297 -42206326 -13636606</internalNodes>
          <leafValues>
            -7.2757774591445923e-01 4.7503134608268738e-01</leafValues></_>
        <_>
          <internalNodes>
            0 -1 19 -1716453381 -984079 -68124675 -3015715 -169149953
            -17193217 -604704769 -5710867</internalNodes>
          <leafValues>
            -7.3761600255966187e-01 4.6304664015769958e-01</leafValues></_>
        <_>
          <internalNodes>
            0 -1 60 -2359549 -2088057970 285441315 -1210347059
            -1177816271 502911075 -1444177883 -436749321</internalNodes>
          <leafValues>
            -6.3596779108047485e-01 5.6399667263031006e-01</leafValues></_></weakClassifiers></_>
    <!-- stage 5 -->
    <_>
      <maxWeakCount>5</maxWeakCount>
      <stageThreshold>-1.3300466537475586e+00</stageThreshold>
      <weakClassifiers>
        <_>
          <internalNodes>
            0 -1 21 -1428422657 -204211201 -1377842177 -210507947
            -2098204737 -18107469 15723487 -547881993</internalNodes>
          <leafValues>
            -7.8933274745941162e-01 3.7410071492195129e-01</leafValues></_>
        <_>
          <internalNodes>
            0 -1 44 -4 -82320546 -812453488 -1701129510 -576890396
            -594697943 2112735368 -537133313</internalNodes>
          <leafValues>
            -7.8252804279327393e-01 3.6696738004684448e-01</leafValues></_>
        <_>
          <internalNodes>
            0 -1 50 -1735390832 -2204524 997973981 -1080207108
            -1147143201 -1078223879 -1077964820 -1073801012</internalNodes>
          <leafValues>
            -7.3264461755752563e-01 4.5586115121841431e-01</leafValues></_>
        <_>
          <internalNodes>
            0 -1 36 -577274883 -1088702990 -36052993 -44180225
            -1884553553 -343754640 1573182975 -552414731</internalNodes>
          <leafValues>
            -6.3318306207656860e-01 4.7891682386398315e-01</leafValues></_>
        <_>
          <internalNodes>
            0 -1 1 -285217026 -33266886 -2041836938 -830347202
            -172048176 -912767982 -802297655 -991181601</internalNodes>
          <leafValues>
            -6.5395355224609375e-01 4.9082362651824951e-01</leafValues></_></weakClassifiers></_>
    <!-- stage 6 -->
    <_>
      <maxWeakCount>5</maxWeakCount>
      <stageThreshold>-1.1416792869567871e+00</stageThreshold>
      <weakClassifiers>
        <_>
          <internalNodes>
            0 -1 16 -1187774497 -70141995 -1145865761 -656907
            -1107645457 -68974369 -102827009 -5</internalNodes>
          <leafValues>
            -7.2388666868209839e-01 4.9348440766334534e-01</leafValues></_>
        <_>
          <internalNodes>
            0 -1 7 -420553217 -16862722 -2114126977 2144262014
            -1672741377 -67430326 -270533637 -10813573</internalNodes>
          <leafValues>
            -6.1708319187164307e-01 4.9463292956352234e-01</leafValues></_>
        <_>
          <internalNodes>
            0 -1 28 -1207247720 1060279508 -1615143937 1610602957
            -1079321414 -4206353 801045439 -1074083332</internalNodes>
          <leafValues>
            -6.7380064725875854e-01 4.5376935601234436e-01</leafValues></_>
        <_>
          <internalNodes>
            0 -1 57 -655103422 -160171177 -606344225 -800916533
            -649598208 -284899227 -270538750 -1073548506</internalNodes>
          <leafValues>
            -6.8047350645065308e-01 4.6312817931175232e-01</leafValues></_>
        <_>
          <internalNodes>
            0 -1 42 -858854718 -930488194 -830802032 -53552200 -90184780
            -543174561 -166986510 -791675569</internalNodes>
          <leafValues>
            -6.8572139739990234e-01 4.5794934034347534e-01</leafValues></_></weakClassifiers></_>
    <!-- stage 7 -->
    <_>
      <maxWeakCount>6</maxWeakCount>
      <stageThreshold>-1.5614221096038818e+00</stageThreshold>
      <weakClassifiers>
        <_>
          <internalNodes>
            0 -1 8 -10753 -75273 -549725701 -74786 -207947269 -71595347
            -543425537 -263169</internalNodes>
          <leafValues>
            -6.7665129899978638e-01 5.4709416627883911e-01</leafValues></_>
        <_>
          <internalNodes>
            0 -1 13 -911605509 -1380766895 -1348270977 -1080332325
            -652621569 -1880422097 -1427382529 -1</internalNodes>
          <leafValues>
            -6.2820309400558472e-01 4.9741941690444946e-01</leafValues></_>
        <_>
          <internalNodes>
            0 -1 38 -285226486 -534056977 -1441106814 -231540149
            1672350978 1124092231 -205065756 -144179233</internalNodes>
          <leafValues>
            -6.1999255418777466e-01 4.4910028576850891e-01</leafValues></_>
        <_>
          <internalNodes>
            0 -1 54 -1088687105 -1151346220 -204214273 2103170045
            -1298208008 -1346656066 697994204 -1883251240</internalNodes>
          <leafValues>
            -5.9443479776382446e-01 4.9941331148147583e-01</leafValues></_>
        <_>
          <internalNodes>
            0 -1 27 280645077 -1080341352 -1749950465 -10547459
            -1717505101 -796525 1057553403 1061145081</internalNodes>
          <leafValues>
            -5.9496176242828369e-01 5.4074496030807495e-01</leafValues></_>
        <_>
          <internalNodes>
            0 -1 61 -167772413 -685774445 1925955856 -81791337
            -1985127599 335608183 -1149580512 -134743577</internalNodes>
          <leafValues>
            -6.3907200098037720e-01 4.5897331833839417e-01</leafValues></_></weakClassifiers></_>
    <!-- stage 8 -->
    <_>
      <maxWeakCount>7</maxWeakCount>
      <stageThreshold>-1.2770687341690063e+00</stageThreshold>
      <weakClassifiers>
        <_>
          <internalNodes>
            0 -1 10 -2101505 -15649 -496835873 -18879969 -74465121
            -808498782 -185603857 -50331649</internalNodes>
          <leafValues>
            -6.8090498447418213e-01 4.9809885025024414e-01</leafValues></_>
        <_>
          <internalNodes>
            0 -1 23 -4457197 -4458445 -544211115 -2099337 -352921360
            -1698768712 -95498923 -572859681</internalNodes>
          <leafValues>
            -6.1493629217147827e-01 4.7000241279602051e-01</leafValues></_>
        <_>
          <internalNodes>
            0 -1 33 -1088357192 -9121708 -134357571 1609483340
            -1615004942 -67117847 -1433875252 -5321588</internalNodes>
          <leafValues>
            -7.1149230003356934e-01 3.8100382685661316e-01</leafValues></_>
        <_>
          <internalNodes>
            0 -1 43 -67371265 254862005 -1697584912 990965712 -656746274
            716317339 -193398308 -4329473</internalNodes>
          <leafValues>
            -5.6938058137893677e-01 4.8569384217262268e-01</leafValues></_>
        <_>
          <internalNodes>
            0 -1 55 -9455446 1065300799 87171594 1071063615 1067957178
            966736043 1058745263 2147475407</internalNodes>
          <leafValues>
            -6.2239700555801392e-01 4.6668973565101624e-01</leafValues></_>
        <_>
          <internalNodes>
            0 -1 58 -536873205 -1605963029 -1031016190 -1058612241
            -902894075 1084731139 -535262 -202637325</internalNodes>
          <leafValues>
            -6.2742799520492554e-01 4.1783198714256287e-01</leafValues></_>
        <_>
          <internalNodes>
            0 -1 24 -765470726 -740979817 -2115805769 -581448873
            -418729540 -72173136 186376021 -548218747</internalNodes>
          <leafValues>
            -6.7322432994842529e-01 4.3842354416847229e-01</leafValues></_></weakClassifiers></_>
    <!-- stage 9 -->
    <_>
      <maxWeakCount>6</maxWeakCount>
      <stageThreshold>-1.7841453552246094e+00</stageThreshold>
      <weakClassifiers>
        <_>
          <internalNodes>
            0 -1 15 -26214913 -33555457 -58755745 -17925154 -70592805
            -72357429 -78644226 -258</internalNodes>
          <leafValues>
            -6.9287467002868652e-01 3.7287205457687378e-01</leafValues></_>
        <_>
          <internalNodes>
            0 -1 32 -235669005 -1141661697 2024863451 -1141768987
            -1040936513 -1073805169 -655295489 -571408691</internalNodes>
          <leafValues>
            -7.3388206958770752e-01 3.3531084656715393e-01</leafValues></_>
        <_>
          <internalNodes>
            0 -1 49 -788269805 -137101313 -1 -134481941 -37748741 -1
            -237240321 -251398397</internalNodes>
          <leafValues>
            -4.8499283194541931e-01 5.5495733022689819e-01</leafValues></_>
        <_>
          <internalNodes>
            0 -1 56 -134879328 2004693010 938809604 1568648469
            2012488616 318841100 317139807 2134900735</internalNodes>
          <leafValues>
            -6.8412667512893677e-01 3.6658623814582825e-01</leafValues></_>
        <_>
          <internalNodes>
            0 -1 9 46825725 1003768565 -1615791169 529668365 -1901412418
            -72173057 723288063 170021277</internalNodes>
          <leafValues>
            -7.2052013874053955e-01 3.5381096601486206e-01</leafValues></_>
        <_>
          <internalNodes>
            0 -1 5 -277878033 -993014585 -455618962 -657003302
            -204479708 1506681731 -74980012 -192937985</internalNodes>
          <leafValues>
            -5.8765476942062378e-01 4.4212153553962708e-01</leafValues></_></weakClassifiers></_>
    <!-- stage 10 -->
    <_>
      <maxWeakCount>6</maxWeakCount>
      <stageThreshold>-1.9084478616714478e+00</stageThreshold>
      <weakClassifiers>
        <_>
          <internalNodes>
            0 -1 3 -268505345 -278142217 755680511 -276045001 -845618177
            -877729353 -807677953 -805306433</internalNodes>
          <leafValues>
            -7.6095235347747803e-01 1.9600798189640045e-01</leafValues></_>
        <_>
          <internalNodes>
            0 -1 22 -352651265 -1275404293 1876946935 -1485570061
            -940842513 -287315469 1087096287 -616307865</internalNodes>
          <leafValues>
            -6.4139783382415771e-01 4.0280973911285400e-01</leafValues></_>
        <_>
          <internalNodes>
            0 -1 0 -2101329 -464534774 1713840266 -125837278 -70526089
            335706173 1933825873 -252188809</internalNodes>
          <leafValues>
            -5.4415202140808105e-01 4.8692351579666138e-01</leafValues></_>
        <_>
          <internalNodes>
            0 -1 41 -134750735 -1089340427 1098440703 -658448
            -1916275265 -272112651 -78909441 -4396551</internalNodes>
          <leafValues>
            -6.8204873800277710e-01 3.7229728698730469e-01</leafValues></_>
        <_>
          <internalNodes>
            0 -1 39 -5406 -238312296 1042942088 -1793867542 -125116696
            -929316733 -820322918 289131179</internalNodes>
          <leafValues>
            -7.0625007152557373e-01 3.8444527983665466e-01</leafValues></_>
        <_>
          <internalNodes>
            0 -1 30 -1080321104 -6697006 1572795344 -1077211 -1617712246
            -544500582 268966988 -808822437</internalNodes>
          <leafValues>
            -7.0300704240798950e-01 3.3565777540206909e-01</leafValues></_></weakClassifiers></_>
    <!-- stage 11 -->
    <_>
      <maxWeakCount>7</maxWeakCount>
      <stageThreshold>-1.3667832612991333e+00</stageThreshold>
      <weakClassifiers>
        <_>
          <internalNodes>
            0 -1 14 -353374465 -2107921 -396893473 -18876897 -208737025
            -67472765 -53542913 -4194305</internalNodes>
          <leafValues>
            -6.6312056779861450e-01 4.0577042102813721e-01</leafValues></_>
        <_>
          <internalNodes>
            0 -1 52 -16515280 -75504657 1940903933 -33927 -292553729
            -1074036033 -607141889 -8451</internalNodes>
          <leafValues>
            -6.9412392377853394e-01 3.1500527262687683e-01</leafValues></_>
        <_>
          <internalNodes>
            0 -1 46 -67108866 -274731461 -109936676 -606077966 -44179460
            -570556739 -2229172 -637665811</internalNodes>
          <leafValues>
            -6.6331261396408081e-01 3.7186244130134583e-01</leafValues></_>
        <_>
          <internalNodes>
            0 -1 45 -1557923853 -161220617 -1 -149424201 -5505025
            -1048577 -1142292486 -1358694653</internalNodes>
          <leafValues>
            -4.4681638479232788e-01 5.6125140190124512e-01</leafValues></_>
        <_>
          <internalNodes>
            0 -1 6 -294719745 -1359265673 -1573329795 -268769537
            -1059000834 1301971403 -841362949 -814066689</internalNodes>
          <leafValues>
            -6.1989921331405640e-01 3.8720750808715820e-01</leafValues></_>
        <_>
          <internalNodes>
            0 -1 51 -196087096 -14758234 1913803504 -78154913
            -1009593136 1077967174 1902375642 1945337727</internalNodes>
          <leafValues>
            -6.5627092123031616e-01 3.6684098839759827e-01</leafValues></_>
        <_>
          <internalNodes>
            0 -1 35 -1330096912 -1942051 -5849153 -156835 -1145375815
            -1078012535 -1161102599 -1166189316</internalNodes>
          <leafValues>
            -6.5303808450698853e-01 3.6052444577217102e-01</leafValues></_></weakClassifiers></_></stages>
  <features>
    <_>
      <rect>
        0 5 1 2</rect></_>
    <_>
      <rect>
        0 5 2 4</rect></_>
    <_>
      <rect>
        0 6 1 2</rect></_>
    <_>
      <rect>
        0 8 3 3</rect></_>
    <_>
      <rect>
        0 8 4 3</rect></_>
    <_>
      <rect>
        0 9 1 1</rect></_>
    <_>
      <rect>
        0 11 3 2</rect></_>
    <_>
      <rect>
        0 14 4 1</rect></_>
    <_>
      <rect>
        0 15 3 1</rect></_>
    <_>
      <rect>
        1 2 4 1</rect></_>
    <_>
      <rect>
        1 8 1 3</rect></_>
    <_>
      <rect>
        1 10 1 2</rect></_>
    <_>
      <rect>
        2 1 9 2</rect></_>
    <_>
      <rect>
        2 9 10 2</rect></_>
    <_>
      <rect>
        2 13 1 1</rect></_>
    <_>
      <rect>
        2 15 1 1</rect></_>
    <_>
      <rect>
        4 11 9 2</rect></_>
    <_>
      <rect>
        4 12 10 2</rect></_>
    <_>
      <rect>
        5 10 8 2</rect></_>
    <_>
      <rect>
        5 12 8 2</rect></_>
    <_>
      <rect>
        5 12 9 2</rect></_>
    <_>
      <rect>
        6 12 8 1</rect></_>
    <_>
      <rect>
        6 12 9 1</rect></_>
    <_>
      <rect>
        7 13 5 1</rect></_>
    <_>
      <rect>
        7 15 6 1</rect></_>
    <_>
      <rect>
        8 10 7 2</rect></_>
    <_>
      <rect>
        8 11 8 2</rect></_>
    <_>
      <rect>
        9 1 5 1</rect></_>
    <_>
      <rect>
        9 2 5 1</rect></_>
    <_>
      <rect>
        9 2 7 1</rect></_>
    <_>
      <rect>
        9 3 8 1</rect></_>
    <_>
      <rect>
        9 6 9 4</rect></_>
    <_>
      <rect>
        9 11 6 2</rect></_>
    <_>
      <rect>
        10 3 5 1</rect></_>
    <_>
      <rect>
        10 15 6 1</rect></_>
    <_>
      <rect>
        11 2 2 1</rect></_>
    <_>
      <rect>
        11 15 7 1</rect></_>
    <_>
      <rect>
        12 1 4 3</rect></_>
    <_>
      <rect>
        12 8 1 1</rect></_>
    <_>
      <rect>
        13 4 3 4</rect></_>
    <_>
      <rect>
        14 0 3 4</rect></_>
    <_>
      <rect>
        14 12 2 2</rect></_>
    <_>
      <rect>
        15 3 2 2</rect></_>
    <_>
      <rect>
        15 10 2 2</rect></_>
    <_>
      <rect>
        16 5 2 4</rect></_>
    <_>
      <rect>
        17 1 2 2</rect></_>
    <_>
      <rect>
        17 3 2 5</rect></_>
    <_>
      <rect>
        17 6 2 4</rect></_>
    <_>
      <rect>
        17 15 4 1</rect></_>
    <_>
      <rect>
        18 0 2 3</rect></_>
    <_>
      <rect>
        19 2 3 1</rect></_>
    <_>
      <rect>
        23 7 2 1</rect></_>
    <_>
      <rect>
        23 11 4 2</rect></_>
    <_>
      <rect>
        24 11 4 2</rect></_>
    <_>
      <rect>
        24 15 4 1</rect></_>
    <_>
      <rect>
        26 6 2 3</rect></_>
    <_>
      <rect>
        29 8 2 2</rect></_>
    <_>
      <rect>
        33 1 1 3</rect></_>
    <_>
      <rect>
        33 6 1 1</rect></_>
    <_>
      <rect>
        33 6 1 2</rect></_>
    <_>
      <rect>
        33 10 1 1</rect></_>
    <_>
      <rect>
        33 11 1 1</rect></_></features></cascade>
</opencv_storage>
